<?xml version="1.0"?>
<opencv_storage>
<cascade>
  <stageType>BOOST</stageType>
  <featureType>HAAR</featureType>
  <height>24</height>
  <width>24</width>
  <stageParams>
    <boostType>GAB</boostType>
    <minHitRate>9.9500000476837158e-01</minHitRate>
    <maxFalseAlarm>5.0000000000000000e-01</maxFalseAlarm>
    <weightTrimRate>9.4999998807907104e-01</weightTrimRate>
    <maxDepth>1</maxDepth>
    <maxWeakCount>100</maxWeakCount></stageParams>
  <featureParams>
    <maxCatCount>0</maxCatCount>
    <featSize>1</featSize>
    <mode>BASIC</mode></featureParams>
  <stageNum>17</stageNum>
  <stages>
    <!-- stage 0 -->
    <_>
      <maxWeakCount>3</maxWeakCount>
      <stageThreshold>-1.4042550325393677e+00</stageThreshold>
      <weakClassifiers>
        <_>
          <internalNodes>
            0 -1 3 7.4769653379917145e-02</internalNodes>
          <leafValues>
            -9.4047617912292480e-01 2.9787233471870422e-01</leafValues></_>
        <_>
          <internalNodes>
            0 -1 52 3.3038116991519928e-02</internalNodes>
          <leafValues>
            -7.5877225399017334e-01 4.1313803195953369e-01</leafValues></_>
        <_>
          <internalNodes>
            0 -1 22 3.6225553601980209e-02</internalNodes>
          <leafValues>
            -1. 2.9499340057373047e-01</leafValues></_></weakClassifiers></_>
    <!-- stage 1 -->
    <_>
      <maxWeakCount>3</maxWeakCount>
      <stageThreshold>-1.1329673528671265e+00</stageThreshold>
      <weakClassifiers>
        <_>
          <internalNodes>
            0 -1 13 -1.2442827224731445e-01</internalNodes>
          <leafValues>
            2.0930232107639313e-01 -8.4090906381607056e-01</leafValues></_>
        <_>
          <internalNodes>
            0 -1 65 4.6563986688852310e-02</internalNodes>
          <leafValues>
            -6.0348743200302124e-01 6.3686549663543701e-01</leafValues></_>
        <_>
          <internalNodes>
            0 -1 8 -1.3362914323806763e-01</internalNodes>
          <leafValues>
            -9.2892378568649292e-01 3.8691261410713196e-01</leafValues></_></weakClassifiers></_>
    <!-- stage 2 -->
    <_>
      <maxWeakCount>3</maxWeakCount>
      <stageThreshold>-7.2165572643280029e-01</stageThreshold>
      <weakClassifiers>
        <_>
          <internalNodes>
            0 -1 16 -6.0523029416799545e-02</internalNodes>
          <leafValues>
            2.5301206111907959e-01 -8.4357541799545288e-01</leafValues></_>
        <_>
          <internalNodes>
            0 -1 45 -4.7394335269927979e-02</internalNodes>
          <leafValues>
            7.4156308174133301e-01 -5.5966538190841675e-01</leafValues></_>
        <_>
          <internalNodes>
            0 -1 67 3.8810526020824909e-03</internalNodes>
          <leafValues>
            -4.1500237584114075e-01 7.3143362998962402e-01</leafValues></_></weakClassifiers></_>
    <!-- stage 3 -->
    <_>
      <maxWeakCount>5</maxWeakCount>
      <stageThreshold>-7.6812195777893066e-01</stageThreshold>
      <weakClassifiers>
        <_>
          <internalNodes>
            0 -1 38 7.3725590482354164e-03</internalNodes>
          <leafValues>
            -7.1689498424530029e-01 6.2790697813034058e-01</leafValues></_>
        <_>
          <internalNodes>
            0 -1 34 7.6216189190745354e-03</internalNodes>
          <leafValues>
            -4.6411976218223572e-01 8.5685825347900391e-01</leafValues></_>
        <_>
          <internalNodes>
            0 -1 53 3.6225514486432076e-03</internalNodes>
          <leafValues>
            -9.1295105218887329e-01 3.5501229763031006e-01</leafValues></_>
        <_>
          <internalNodes>
            0 -1 46 1.0090842843055725e-03</internalNodes>
          <leafValues>
            -4.5550522208213806e-01 7.4017119407653809e-01</leafValues></_>
        <_>
          <internalNodes>
            0 -1 28 5.6496297474950552e-04</internalNodes>
          <leafValues>
            5.1338571310043335e-01 -6.3702428340911865e-01</leafValues></_></weakClassifiers></_>
    <!-- stage 4 -->
    <_>
      <maxWeakCount>4</maxWeakCount>
      <stageThreshold>-5.8091652393341064e-01</stageThreshold>
      <weakClassifiers>
        <_>
          <internalNodes>
            0 -1 33 1.0669598355889320e-02</internalNodes>
          <leafValues>
            -6.5665233135223389e-01 7.9310345649719238e-01</leafValues></_>
        <_>
          <internalNodes>
            0 -1 59 5.7110376656055450e-03</internalNodes>
          <leafValues>
            -7.6649677753448486e-01 4.3268713355064392e-01</leafValues></_>
        <_>
          <internalNodes>
            0 -1 12 7.3001522105187178e-04</internalNodes>
          <leafValues>
            -7.9180872440338135e-01 3.4413468837738037e-01</leafValues></_>
        <_>
          <internalNodes>
            0 -1 62 -9.0114423073828220e-04</internalNodes>
          <leafValues>
            4.9809789657592773e-01 -5.8763647079467773e-01</leafValues></_></weakClassifiers></_>
    <!-- stage 5 -->
    <_>
      <maxWeakCount>4</maxWeakCount>
      <stageThreshold>-1.2614215612411499e+00</stageThreshold>
      <weakClassifiers>
        <_>
          <internalNodes>
            0 -1 31 -1.6125783324241638e-02</internalNodes>
          <leafValues>
            2.0000000298023224e-01 -7.2588831186294556e-01</leafValues></_>
        <_>
          <internalNodes>
            0 -1 43 -8.4997303783893585e-02</internalNodes>
          <leafValues>
            3.7817600369453430e-01 -5.1824903488159180e-01</leafValues></_>
        <_>
          <internalNodes>
            0 -1 27 -1.4035342261195183e-02</internalNodes>
          <leafValues>
            3.7721794843673706e-01 -6.1447733640670776e-01</leafValues></_>
        <_>
          <internalNodes>
            0 -1 7 -4.3750222772359848e-02</internalNodes>
          <leafValues>
            7.0095807313919067e-01 -3.9450219273567200e-01</leafValues></_></weakClassifiers></_>
    <!-- stage 6 -->
    <_>
      <maxWeakCount>4</maxWeakCount>
      <stageThreshold>-1.2759517431259155e+00</stageThreshold>
      <weakClassifiers>
        <_>
          <internalNodes>
            0 -1 11 3.4616496413946152e-03</internalNodes>
          <leafValues>
            -7.9617834091186523e-01 -4.7619048506021500e-02</leafValues></_>
        <_>
          <internalNodes>
            0 -1 10 -2.1307906135916710e-02</internalNodes>
          <leafValues>
            3.1132608652114868e-01 -5.5476331710815430e-01</leafValues></_>
        <_>
          <internalNodes>
            0 -1 70 2.8227081056684256e-03</internalNodes>
          <leafValues>
            -3.9188307523727417e-01 6.3224142789840698e-01</leafValues></_>
        <_>
          <internalNodes>
            0 -1 57 -2.4925971956690773e-05</internalNodes>
          <leafValues>
            4.6687299013137817e-01 -5.1582032442092896e-01</leafValues></_></weakClassifiers></_>
    <!-- stage 7 -->
    <_>
      <maxWeakCount>4</maxWeakCount>
      <stageThreshold>-1.0730153322219849e+00</stageThreshold>
      <weakClassifiers>
        <_>
          <internalNodes>
            0 -1 48 1.7257269471883774e-02</internalNodes>
          <leafValues>
            -7.7108430862426758e-01 -2.0833333954215050e-02</leafValues></_>
        <_>
          <internalNodes>
            0 -1 50 3.9828121662139893e-03</internalNodes>
          <leafValues>
            1.9860732555389404e-01 -7.2202670574188232e-01</leafValues></_>
        <_>
          <internalNodes>
            0 -1 69 1.5895071555860341e-04</internalNodes>
          <leafValues>
            2.4785540997982025e-01 -7.4388760328292847e-01</leafValues></_>
        <_>
          <internalNodes>
            0 -1 4 -2.6476676575839520e-03</internalNodes>
          <leafValues>
            -9.5851564407348633e-01 2.4334926903247833e-01</leafValues></_></weakClassifiers></_>
    <!-- stage 8 -->
    <_>
      <maxWeakCount>5</maxWeakCount>
      <stageThreshold>-9.8959428071975708e-01</stageThreshold>
      <weakClassifiers>
        <_>
          <internalNodes>
            0 -1 30 -3.8748107850551605e-02</internalNodes>
          <leafValues>
            7.3913043737411499e-01 -6.1506277322769165e-01</leafValues></_>
        <_>
          <internalNodes>
            0 -1 47 4.2573455721139908e-03</internalNodes>
          <leafValues>
            -4.8328185081481934e-01 6.7386811971664429e-01</leafValues></_>
        <_>
          <internalNodes>
            0 -1 71 4.2888429015874863e-04</internalNodes>
          <leafValues>
            3.8400909304618835e-01 -7.1736252307891846e-01</leafValues></_>
        <_>
          <internalNodes>
            0 -1 58 -2.8779385611414909e-03</internalNodes>
          <leafValues>
            4.6565097570419312e-01 -4.4417208433151245e-01</leafValues></_>
        <_>
          <internalNodes>
            0 -1 39 1.5827342867851257e-03</internalNodes>
          <leafValues>
            3.3552846312522888e-01 -7.9668807983398438e-01</leafValues></_></weakClassifiers></_>
    <!-- stage 9 -->
    <_>
      <maxWeakCount>5</maxWeakCount>
      <stageThreshold>-8.4724259376525879e-01</stageThreshold>
      <weakClassifiers>
        <_>
          <internalNodes>
            0 -1 32 -7.3425903916358948e-02</internalNodes>
          <leafValues>
            8.6666667461395264e-01 -5.7894736528396606e-01</leafValues></_>
        <_>
          <internalNodes>
            0 -1 17 1.6786617925390601e-04</internalNodes>
          <leafValues>
            -7.0917016267776489e-01 2.5458920001983643e-01</leafValues></_>
        <_>
          <internalNodes>
            0 -1 35 -1.0188573040068150e-02</internalNodes>
          <leafValues>
            -1. 2.0834812521934509e-01</leafValues></_>
        <_>
          <internalNodes>
            0 -1 25 2.0088190212845802e-03</internalNodes>
          <leafValues>
            -4.6960836648941040e-01 4.8093095421791077e-01</leafValues></_>
        <_>
          <internalNodes>
            0 -1 40 -1.8468853831291199e-01</internalNodes>
          <leafValues>
            8.0554783344268799e-01 -2.4840414524078369e-01</leafValues></_></weakClassifiers></_>
    <!-- stage 10 -->
    <_>
      <maxWeakCount>5</maxWeakCount>
      <stageThreshold>-1.1054800748825073e+00</stageThreshold>
      <weakClassifiers>
        <_>
          <internalNodes>
            0 -1 23 4.9157142639160156e-02</internalNodes>
          <leafValues>
            -6.8780487775802612e-01 1.9298245012760162e-01</leafValues></_>
        <_>
          <internalNodes>
            0 -1 60 1.2190259993076324e-02</internalNodes>
          <leafValues>
            -4.1260471940040588e-01 5.3980296850204468e-01</leafValues></_>
        <_>
          <internalNodes>
            0 -1 68 -9.6851185662671924e-04</internalNodes>
          <leafValues>
            -1. 1.9660949707031250e-01</leafValues></_>
        <_>
          <internalNodes>
            0 -1 72 -2.8072878194507211e-05</internalNodes>
          <leafValues>
            5.6541758775711060e-01 -4.0943187475204468e-01</leafValues></_>
        <_>
          <internalNodes>
            0 -1 0 -4.2360937222838402e-03</internalNodes>
          <leafValues>
            -9.4748198986053467e-01 2.0775189995765686e-01</leafValues></_></weakClassifiers></_>
    <!-- stage 11 -->
    <_>
      <maxWeakCount>5</maxWeakCount>
      <stageThreshold>-8.5292875766754150e-01</stageThreshold>
      <weakClassifiers>
        <_>
          <internalNodes>
            0 -1 9 9.7155803814530373e-05</internalNodes>
          <leafValues>
            -7.1134018898010254e-01 1.1764705926179886e-01</leafValues></_>
        <_>
          <internalNodes>
            0 -1 2 -7.9641759395599365e-02</internalNodes>
          <leafValues>
            4.6386545896530151e-01 -4.1418310999870300e-01</leafValues></_>
        <_>
          <internalNodes>
            0 -1 51 -1.8916849046945572e-02</internalNodes>
          <leafValues>
            5.0791043043136597e-01 -4.6923673152923584e-01</leafValues></_>
        <_>
          <internalNodes>
            0 -1 26 -1.3840581290423870e-02</internalNodes>
          <leafValues>
            3.3575707674026489e-01 -6.9367486238479614e-01</leafValues></_>
        <_>
          <internalNodes>
            0 -1 18 2.8732814826071262e-05</internalNodes>
          <leafValues>
            -4.1968962550163269e-01 5.1472812891006470e-01</leafValues></_></weakClassifiers></_>
    <!-- stage 12 -->
    <_>
      <maxWeakCount>5</maxWeakCount>
      <stageThreshold>-6.4200216531753540e-01</stageThreshold>
      <weakClassifiers>
        <_>
          <internalNodes>
            0 -1 36 1.7562326043844223e-02</internalNodes>
          <leafValues>
            -5.9183675050735474e-01 8.8235294818878174e-01</leafValues></_>
        <_>
          <internalNodes>
            0 -1 63 7.1240228135138750e-04</internalNodes>
          <leafValues>
            -6.1267840862274170e-01 3.4679937362670898e-01</leafValues></_>
        <_>
          <internalNodes>
            0 -1 66 -5.7518649555277079e-05</internalNodes>
          <leafValues>
            4.4804704189300537e-01 -4.6227625012397766e-01</leafValues></_>
        <_>
          <internalNodes>
            0 -1 44 2.8260609135031700e-02</internalNodes>
          <leafValues>
            -3.7359917163848877e-01 6.1783576011657715e-01</leafValues></_>
        <_>
          <internalNodes>
            0 -1 14 3.8946219137869775e-04</internalNodes>
          <leafValues>
            -4.7141265869140625e-01 4.8961985111236572e-01</leafValues></_></weakClassifiers></_>
    <!-- stage 13 -->
    <_>
      <maxWeakCount>5</maxWeakCount>
      <stageThreshold>-7.6954573392868042e-01</stageThreshold>
      <weakClassifiers>
        <_>
          <internalNodes>
            0 -1 24 -5.8090455830097198e-02</internalNodes>
          <leafValues>
            2.9629629850387573e-01 -7.0192307233810425e-01</leafValues></_>
        <_>
          <internalNodes>
            0 -1 64 3.9138104766607285e-03</internalNodes>
          <leafValues>
            -4.2457506060600281e-01 6.6389209032058716e-01</leafValues></_>
        <_>
          <internalNodes>
            0 -1 5 2.0634082611650229e-03</internalNodes>
          <leafValues>
            2.7707254886627197e-01 -7.9066306352615356e-01</leafValues></_>
        <_>
          <internalNodes>
            0 -1 54 -4.2384956032037735e-04</internalNodes>
          <leafValues>
            7.3274344205856323e-01 -3.0746984481811523e-01</leafValues></_>
        <_>
          <internalNodes>
            0 -1 56 1.1480939429020509e-04</internalNodes>
          <leafValues>
            -4.8604515194892883e-01 4.5686590671539307e-01</leafValues></_></weakClassifiers></_>
    <!-- stage 14 -->
    <_>
      <maxWeakCount>6</maxWeakCount>
      <stageThreshold>-1.0084141492843628e+00</stageThreshold>
      <weakClassifiers>
        <_>
          <internalNodes>
            0 -1 49 -6.8396157585084438e-03</internalNodes>
          <leafValues>
            1. -6.0000002384185791e-01</leafValues></_>
        <_>
          <internalNodes>
            0 -1 37 2.2827381268143654e-02</internalNodes>
          <leafValues>
            -4.1341295838356018e-01 6.3518017530441284e-01</leafValues></_>
        <_>
          <internalNodes>
            0 -1 20 -6.7924795439466834e-04</internalNodes>
          <leafValues>
            6.1450439691543579e-01 -3.2141992449760437e-01</leafValues></_>
        <_>
          <internalNodes>
            0 -1 61 1.6970696742646396e-04</internalNodes>
          <leafValues>
            -4.5598962903022766e-01 5.2853876352310181e-01</leafValues></_>
        <_>
          <internalNodes>
            0 -1 42 1.8171021947637200e-03</internalNodes>
          <leafValues>
            -4.2538881301879883e-01 5.0432223081588745e-01</leafValues></_>
        <_>
          <internalNodes>
            0 -1 1 -4.1445575654506683e-02</internalNodes>
          <leafValues>
            -8.9088606834411621e-01 2.7187290787696838e-01</leafValues></_></weakClassifiers></_>
    <!-- stage 15 -->
    <_>
      <maxWeakCount>4</maxWeakCount>
      <stageThreshold>-7.1259796619415283e-01</stageThreshold>
      <weakClassifiers>
        <_>
          <internalNodes>
            0 -1 29 -1.5844348818063736e-02</internalNodes>
          <leafValues>
            1. -6.0000002384185791e-01</leafValues></_>
        <_>
          <internalNodes>
            0 -1 6 3.9269920438528061e-02</internalNodes>
          <leafValues>
            -5.1014143228530884e-01 6.5690332651138306e-01</leafValues></_>
        <_>
          <internalNodes>
            0 -1 21 8.1357154995203018e-03</internalNodes>
          <leafValues>
            -2.8264814615249634e-01 7.0839381217956543e-01</leafValues></_>
        <_>
          <internalNodes>
            0 -1 19 2.9786799103021622e-02</internalNodes>
          <leafValues>
            -3.1085032224655151e-01 8.0402851104736328e-01</leafValues></_></weakClassifiers></_>
    <!-- stage 16 -->
    <_>
      <maxWeakCount>3</maxWeakCount>
      <stageThreshold>-5.3065752983093262e-01</stageThreshold>
      <weakClassifiers>
        <_>
          <internalNodes>
            0 -1 55 -1.0092074051499367e-02</internalNodes>
          <leafValues>
            1. -7.0434784889221191e-01</leafValues></_>
        <_>
          <internalNodes>
            0 -1 15 -6.3660665182396770e-04</internalNodes>
          <leafValues>
            7.9849433898925781e-01 -5.3469479084014893e-01</leafValues></_>
        <_>
          <internalNodes>
            0 -1 41 -1.4246110804378986e-03</internalNodes>
          <leafValues>
            7.2211122512817383e-01 -6.2480401992797852e-01</leafValues></_></weakClassifiers></_></stages>
  <features>
    <_>
      <rects>
        <_>
          0 0 2 20 -1.</_>
        <_>
          0 10 2 10 2.</_></rects>
      <tilted>0</tilted></_>
    <_>
      <rects>
        <_>
          0 9 24 9 -1.</_>
        <_>
          0 12 24 3 3.</_></rects>
      <tilted>0</tilted></_>
    <_>
      <rects>
        <_>
          0 10 15 12 -1.</_>
        <_>
          5 10 5 12 3.</_></rects>
      <tilted>0</tilted></_>
    <_>
      <rects>
        <_>
          0 14 23 10 -1.</_>
        <_>
          0 19 23 5 2.</_></rects>
      <tilted>0</tilted></_>
    <_>
      <rects>
        <_>
          0 15 14 2 -1.</_>
        <_>
          0 16 14 1 2.</_></rects>
      <tilted>0</tilted></_>
    <_>
      <rects>
        <_>
          0 17 4 6 -1.</_>
        <_>
          0 19 4 2 3.</_></rects>
      <tilted>0</tilted></_>
    <_>
      <rects>
        <_>
          1 1 9 9 -1.</_>
        <_>
          1 4 9 3 3.</_></rects>
      <tilted>0</tilted></_>
    <_>
      <rects>
        <_>
          1 7 9 14 -1.</_>
        <_>
          4 7 3 14 3.</_></rects>
      <tilted>0</tilted></_>
    <_>
      <rects>
        <_>
          1 7 22 15 -1.</_>
        <_>
          1 12 22 5 3.</_></rects>
      <tilted>0</tilted></_>
    <_>
      <rects>
        <_>
          1 14 2 2 -1.</_>
        <_>
          2 14 1 2 2.</_></rects>
      <tilted>0</tilted></_>
    <_>
      <rects>
        <_>
          1 14 16 9 -1.</_>
        <_>
          1 17 16 3 3.</_></rects>
      <tilted>0</tilted></_>
    <_>
      <rects>
        <_>
          1 18 9 3 -1.</_>
        <_>
          4 18 3 3 3.</_></rects>
      <tilted>0</tilted></_>
    <_>
      <rects>
        <_>
          2 0 1 22 -1.</_>
        <_>
          2 11 1 11 2.</_></rects>
      <tilted>0</tilted></_>
    <_>
      <rects>
        <_>
          2 10 21 10 -1.</_>
        <_>
          9 10 7 10 3.</_></rects>
      <tilted>0</tilted></_>
    <_>
      <rects>
        <_>
          2 11 2 6 -1.</_>
        <_>
          2 13 2 2 3.</_></rects>
      <tilted>0</tilted></_>
    <_>
      <rects>
        <_>
          2 11 9 6 -1.</_>
        <_>
          2 13 9 2 3.</_></rects>
      <tilted>0</tilted></_>
    <_>
      <rects>
        <_>
          2 15 21 5 -1.</_>
        <_>
          9 15 7 5 3.</_></rects>
      <tilted>0</tilted></_>
    <_>
      <rects>
        <_>
          3 18 6 6 -1.</_>
        <_>
          3 18 3 3 2.</_>
        <_>
          6 21 3 3 2.</_></rects>
      <tilted>0</tilted></_>
    <_>
      <rects>
        <_>
          3 23 21 1 -1.</_>
        <_>
          10 23 7 1 3.</_></rects>
      <tilted>0</tilted></_>
    <_>
      <rects>
        <_>
          4 2 2 21 -1.</_>
        <_>
          4 9 2 7 3.</_></rects>
      <tilted>0</tilted></_>
    <_>
      <rects>
        <_>
          4 6 2 4 -1.</_>
        <_>
          4 6 1 2 2.</_>
        <_>
          5 8 1 2 2.</_></rects>
      <tilted>0</tilted></_>
    <_>
      <rects>
        <_>
          4 7 20 4 -1.</_>
        <_>
          4 7 10 2 2.</_>
        <_>
          14 9 10 2 2.</_></rects>
      <tilted>0</tilted></_>
    <_>
      <rects>
        <_>
          4 14 18 10 -1.</_>
        <_>
          4 19 18 5 2.</_></rects>
      <tilted>0</tilted></_>
    <_>
      <rects>
        <_>
          5 0 8 9 -1.</_>
        <_>
          5 3 8 3 3.</_></rects>
      <tilted>0</tilted></_>
    <_>
      <rects>
        <_>
          5 3 17 6 -1.</_>
        <_>
          5 6 17 3 2.</_></rects>
      <tilted>0</tilted></_>
    <_>
      <rects>
        <_>
          5 5 5 3 -1.</_>
        <_>
          5 6 5 1 3.</_></rects>
      <tilted>0</tilted></_>
    <_>
      <rects>
        <_>
          5 11 15 6 -1.</_>
        <_>
          10 11 5 6 3.</_></rects>
      <tilted>0</tilted></_>
    <_>
      <rects>
        <_>
          5 13 12 9 -1.</_>
        <_>
          9 13 4 9 3.</_></rects>
      <tilted>0</tilted></_>
    <_>
      <rects>
        <_>
          5 22 19 2 -1.</_>
        <_>
          5 23 19 1 2.</_></rects>
      <tilted>0</tilted></_>
    <_>
      <rects>
        <_>
          6 2 5 4 -1.</_>
        <_>
          6 4 5 2 2.</_></rects>
      <tilted>0</tilted></_>
    <_>
      <rects>
        <_>
          6 5 5 6 -1.</_>
        <_>
          6 7 5 2 3.</_></rects>
      <tilted>0</tilted></_>
    <_>
      <rects>
        <_>
          6 16 10 6 -1.</_>
        <_>
          6 18 10 2 3.</_></rects>
      <tilted>0</tilted></_>
    <_>
      <rects>
        <_>
          7 3 13 4 -1.</_>
        <_>
          7 5 13 2 2.</_></rects>
      <tilted>0</tilted></_>
    <_>
      <rects>
        <_>
          7 4 6 3 -1.</_>
        <_>
          7 5 6 1 3.</_></rects>
      <tilted>0</tilted></_>
    <_>
      <rects>
        <_>
          7 4 10 3 -1.</_>
        <_>
          7 5 10 1 3.</_></rects>
      <tilted>0</tilted></_>
    <_>
      <rects>
        <_>
          7 12 6 6 -1.</_>
        <_>
          7 14 6 2 3.</_></rects>
      <tilted>0</tilted></_>
    <_>
      <rects>
        <_>
          8 4 7 3 -1.</_>
        <_>
          8 5 7 1 3.</_></rects>
      <tilted>0</tilted></_>
    <_>
      <rects>
        <_>
          8 6 7 6 -1.</_>
        <_>
          8 8 7 2 3.</_></rects>
      <tilted>0</tilted></_>
    <_>
      <rects>
        <_>
          8 7 11 3 -1.</_>
        <_>
          8 8 11 1 3.</_></rects>
      <tilted>0</tilted></_>
    <_>
      <rects>
        <_>
          8 13 9 11 -1.</_>
        <_>
          11 13 3 11 3.</_></rects>
      <tilted>0</tilted></_>
    <_>
      <rects>
        <_>
          9 2 12 18 -1.</_>
        <_>
          9 8 12 6 3.</_></rects>
      <tilted>0</tilted></_>
    <_>
      <rects>
        <_>
          9 6 6 4 -1.</_>
        <_>
          11 6 2 4 3.</_></rects>
      <tilted>0</tilted></_>
    <_>
      <rects>
        <_>
          9 6 4 10 -1.</_>
        <_>
          9 6 2 5 2.</_>
        <_>
          11 11 2 5 2.</_></rects>
      <tilted>0</tilted></_>
    <_>
      <rects>
        <_>
          9 6 15 15 -1.</_>
        <_>
          14 6 5 15 3.</_></rects>
      <tilted>0</tilted></_>
    <_>
      <rects>
        <_>
          9 9 4 12 -1.</_>
        <_>
          9 15 4 6 2.</_></rects>
      <tilted>0</tilted></_>
    <_>
      <rects>
        <_>
          10 2 9 6 -1.</_>
        <_>
          10 5 9 3 2.</_></rects>
      <tilted>0</tilted></_>
    <_>
      <rects>
        <_>
          10 6 1 3 -1.</_>
        <_>
          10 7 1 1 3.</_></rects>
      <tilted>0</tilted></_>
    <_>
      <rects>
        <_>
          10 6 4 3 -1.</_>
        <_>
          10 7 4 1 3.</_></rects>
      <tilted>0</tilted></_>
    <_>
      <rects>
        <_>
          10 11 14 3 -1.</_>
        <_>
          17 11 7 3 2.</_></rects>
      <tilted>0</tilted></_>
    <_>
      <rects>
        <_>
          10 19 3 3 -1.</_>
        <_>
          10 20 3 1 3.</_></rects>
      <tilted>0</tilted></_>
    <_>
      <rects>
        <_>
          11 13 4 7 -1.</_>
        <_>
          13 13 2 7 2.</_></rects>
      <tilted>0</tilted></_>
    <_>
      <rects>
        <_>
          12 12 12 8 -1.</_>
        <_>
          16 12 4 8 3.</_></rects>
      <tilted>0</tilted></_>
    <_>
      <rects>
        <_>
          12 15 12 6 -1.</_>
        <_>
          18 15 6 6 2.</_></rects>
      <tilted>0</tilted></_>
    <_>
      <rects>
        <_>
          13 2 2 22 -1.</_>
        <_>
          13 13 2 11 2.</_></rects>
      <tilted>0</tilted></_>
    <_>
      <rects>
        <_>
          13 18 1 2 -1.</_>
        <_>
          13 19 1 1 2.</_></rects>
      <tilted>0</tilted></_>
    <_>
      <rects>
        <_>
          14 0 5 6 -1.</_>
        <_>
          14 3 5 3 2.</_></rects>
      <tilted>0</tilted></_>
    <_>
      <rects>
        <_>
          14 10 1 4 -1.</_>
        <_>
          14 12 1 2 2.</_></rects>
      <tilted>0</tilted></_>
    <_>
      <rects>
        <_>
          14 14 2 2 -1.</_>
        <_>
          15 14 1 2 2.</_></rects>
      <tilted>0</tilted></_>
    <_>
      <rects>
        <_>
          14 16 7 6 -1.</_>
        <_>
          14 18 7 2 3.</_></rects>
      <tilted>0</tilted></_>
    <_>
      <rects>
        <_>
          14 17 8 7 -1.</_>
        <_>
          18 17 4 7 2.</_></rects>
      <tilted>0</tilted></_>
    <_>
      <rects>
        <_>
          15 0 4 6 -1.</_>
        <_>
          15 2 4 2 3.</_></rects>
      <tilted>0</tilted></_>
    <_>
      <rects>
        <_>
          15 1 2 8 -1.</_>
        <_>
          15 1 1 4 2.</_>
        <_>
          16 5 1 4 2.</_></rects>
      <tilted>0</tilted></_>
    <_>
      <rects>
        <_>
          17 0 6 3 -1.</_>
        <_>
          20 0 3 3 2.</_></rects>
      <tilted>0</tilted></_>
    <_>
      <rects>
        <_>
          17 12 2 8 -1.</_>
        <_>
          17 12 1 4 2.</_>
        <_>
          18 16 1 4 2.</_></rects>
      <tilted>0</tilted></_>
    <_>
      <rects>
        <_>
          18 4 1 6 -1.</_>
        <_>
          18 7 1 3 2.</_></rects>
      <tilted>0</tilted></_>
    <_>
      <rects>
        <_>
          18 4 6 19 -1.</_>
        <_>
          21 4 3 19 2.</_></rects>
      <tilted>0</tilted></_>
    <_>
      <rects>
        <_>
          18 5 3 2 -1.</_>
        <_>
          19 5 1 2 3.</_></rects>
      <tilted>0</tilted></_>
    <_>
      <rects>
        <_>
          18 6 2 6 -1.</_>
        <_>
          18 8 2 2 3.</_></rects>
      <tilted>0</tilted></_>
    <_>
      <rects>
        <_>
          18 19 6 4 -1.</_>
        <_>
          18 21 6 2 2.</_></rects>
      <tilted>0</tilted></_>
    <_>
      <rects>
        <_>
          18 21 5 3 -1.</_>
        <_>
          18 22 5 1 3.</_></rects>
      <tilted>0</tilted></_>
    <_>
      <rects>
        <_>
          19 7 1 6 -1.</_>
        <_>
          19 9 1 2 3.</_></rects>
      <tilted>0</tilted></_>
    <_>
      <rects>
        <_>
          21 18 2 6 -1.</_>
        <_>
          21 20 2 2 3.</_></rects>
      <tilted>0</tilted></_>
    <_>
      <rects>
        <_>
          22 20 2 2 -1.</_>
        <_>
          23 20 1 2 2.</_></rects>
      <tilted>0</tilted></_></features></cascade>
</opencv_storage>
