<?xml version="1.0"?>
<opencv_storage>
<cascade>
  <stageType>BOOST</stageType>
  <featureType>HAAR</featureType>
  <height>50</height>
  <width>50</width>
  <stageParams>
    <boostType>GAB</boostType>
    <minHitRate>9.9500000476837158e-01</minHitRate>
    <maxFalseAlarm>5.0000000000000000e-01</maxFalseAlarm>
    <weightTrimRate>9.4999998807907104e-01</weightTrimRate>
    <maxDepth>1</maxDepth>
    <maxWeakCount>100</maxWeakCount></stageParams>
  <featureParams>
    <maxCatCount>0</maxCatCount>
    <featSize>1</featSize>
    <mode>BASIC</mode></featureParams>
  <stageNum>12</stageNum>
  <stages>
    <!-- stage 0 -->
    <_>
      <maxWeakCount>1</maxWeakCount>
      <stageThreshold>1.</stageThreshold>
      <weakClassifiers>
        <_>
          <internalNodes>
            0 -1 13 6.8402229808270931e-03</internalNodes>
          <leafValues>
            -1. 1.</leafValues></_></weakClassifiers></_>
    <!-- stage 1 -->
    <_>
      <maxWeakCount>2</maxWeakCount>
      <stageThreshold>-1.3167567551136017e-01</stageThreshold>
      <weakClassifiers>
        <_>
          <internalNodes>
            0 -1 15 -1.9695226103067398e-02</internalNodes>
          <leafValues>
            8.0000001192092896e-01 -9.6491229534149170e-01</leafValues></_>
        <_>
          <internalNodes>
            0 -1 10 3.8383575156331062e-03</internalNodes>
          <leafValues>
            -9.3167567253112793e-01 9.2525303363800049e-01</leafValues></_></weakClassifiers></_>
    <!-- stage 2 -->
    <_>
      <maxWeakCount>2</maxWeakCount>
      <stageThreshold>-1.1894930899143219e-01</stageThreshold>
      <weakClassifiers>
        <_>
          <internalNodes>
            0 -1 1 1.5821817517280579e-01</internalNodes>
          <leafValues>
            -9.6551722288131714e-01 8.9473682641983032e-01</leafValues></_>
        <_>
          <internalNodes>
            0 -1 8 8.6443591862916946e-03</internalNodes>
          <leafValues>
            -9.3246430158615112e-01 8.4656792879104614e-01</leafValues></_></weakClassifiers></_>
    <!-- stage 3 -->
    <_>
      <maxWeakCount>2</maxWeakCount>
      <stageThreshold>-3.1956785917282104e-01</stageThreshold>
      <weakClassifiers>
        <_>
          <internalNodes>
            0 -1 4 9.8799122497439384e-04</internalNodes>
          <leafValues>
            -9.6296298503875732e-01 5.6521737575531006e-01</leafValues></_>
        <_>
          <internalNodes>
            0 -1 20 -2.9266243800520897e-03</internalNodes>
          <leafValues>
            8.1359791755676270e-01 -8.8478523492813110e-01</leafValues></_></weakClassifiers></_>
    <!-- stage 4 -->
    <_>
      <maxWeakCount>2</maxWeakCount>
      <stageThreshold>-1.7938226461410522e-01</stageThreshold>
      <weakClassifiers>
        <_>
          <internalNodes>
            0 -1 3 8.5825417190790176e-03</internalNodes>
          <leafValues>
            -8.9655172824859619e-01 6.8421053886413574e-01</leafValues></_>
        <_>
          <internalNodes>
            0 -1 7 6.7966413917019963e-04</internalNodes>
          <leafValues>
            -8.6359280347824097e-01 8.8526535034179688e-01</leafValues></_></weakClassifiers></_>
    <!-- stage 5 -->
    <_>
      <maxWeakCount>2</maxWeakCount>
      <stageThreshold>-7.5765497982501984e-02</stageThreshold>
      <weakClassifiers>
        <_>
          <internalNodes>
            0 -1 11 -5.8870255015790462e-03</internalNodes>
          <leafValues>
            8.7500000000000000e-01 -8.6885243654251099e-01</leafValues></_>
        <_>
          <internalNodes>
            0 -1 17 -1.5134920831769705e-03</internalNodes>
          <leafValues>
            7.9308694601058960e-01 -9.0335273742675781e-01</leafValues></_></weakClassifiers></_>
    <!-- stage 6 -->
    <_>
      <maxWeakCount>2</maxWeakCount>
      <stageThreshold>-3.5752754658460617e-02</stageThreshold>
      <weakClassifiers>
        <_>
          <internalNodes>
            0 -1 12 1.4299301803112030e-01</internalNodes>
          <leafValues>
            -8.4126985073089600e-01 1.</leafValues></_>
        <_>
          <internalNodes>
            0 -1 14 -2.2087143734097481e-03</internalNodes>
          <leafValues>
            8.0551707744598389e-01 -9.3873411417007446e-01</leafValues></_></weakClassifiers></_>
    <!-- stage 7 -->
    <_>
      <maxWeakCount>2</maxWeakCount>
      <stageThreshold>-1.7470701038837433e-01</stageThreshold>
      <weakClassifiers>
        <_>
          <internalNodes>
            0 -1 5 7.9686297103762627e-03</internalNodes>
          <leafValues>
            -9.3103450536727905e-01 7.8947371244430542e-01</leafValues></_>
        <_>
          <internalNodes>
            0 -1 6 6.1325402930378914e-04</internalNodes>
          <leafValues>
            -9.6418070793151855e-01 7.7341741323471069e-01</leafValues></_></weakClassifiers></_>
    <!-- stage 8 -->
    <_>
      <maxWeakCount>2</maxWeakCount>
      <stageThreshold>1.5873016417026520e-01</stageThreshold>
      <weakClassifiers>
        <_>
          <internalNodes>
            0 -1 19 1.8711660057306290e-02</internalNodes>
          <leafValues>
            -8.4126985073089600e-01 1.</leafValues></_>
        <_>
          <internalNodes>
            0 -1 16 -7.1942461654543877e-03</internalNodes>
          <leafValues>
            1. -8.3778798580169678e-01</leafValues></_></weakClassifiers></_>
    <!-- stage 9 -->
    <_>
      <maxWeakCount>2</maxWeakCount>
      <stageThreshold>-1.7087811231613159e-01</stageThreshold>
      <weakClassifiers>
        <_>
          <internalNodes>
            0 -1 2 4.2142830789089203e-02</internalNodes>
          <leafValues>
            -9.6551722288131714e-01 8.9473682641983032e-01</leafValues></_>
        <_>
          <internalNodes>
            0 -1 9 -6.7614521831274033e-03</internalNodes>
          <leafValues>
            -1. 7.9463911056518555e-01</leafValues></_></weakClassifiers></_>
    <!-- stage 10 -->
    <_>
      <maxWeakCount>1</maxWeakCount>
      <stageThreshold>8.0952382087707520e-01</stageThreshold>
      <weakClassifiers>
        <_>
          <internalNodes>
            0 -1 18 -7.8299810411408544e-04</internalNodes>
          <leafValues>
            8.0952382087707520e-01 -1.</leafValues></_></weakClassifiers></_>
    <!-- stage 11 -->
    <_>
      <maxWeakCount>1</maxWeakCount>
      <stageThreshold>1.</stageThreshold>
      <weakClassifiers>
        <_>
          <internalNodes>
            0 -1 0 -3.7068463861942291e-02</internalNodes>
          <leafValues>
            -1. 1.</leafValues></_></weakClassifiers></_></stages>
  <features>
    <_>
      <rects>
        <_>
          0 0 36 15 -1.</_>
        <_>
          12 0 12 15 3.</_></rects>
      <tilted>0</tilted></_>
    <_>
      <rects>
        <_>
          0 2 43 40 -1.</_>
        <_>
          0 22 43 20 2.</_></rects>
      <tilted>0</tilted></_>
    <_>
      <rects>
        <_>
          0 16 39 29 -1.</_>
        <_>
          13 16 13 29 3.</_></rects>
      <tilted>0</tilted></_>
    <_>
      <rects>
        <_>
          0 20 45 6 -1.</_>
        <_>
          0 23 45 3 2.</_></rects>
      <tilted>0</tilted></_>
    <_>
      <rects>
        <_>
          1 9 24 1 -1.</_>
        <_>
          13 9 12 1 2.</_></rects>
      <tilted>0</tilted></_>
    <_>
      <rects>
        <_>
          2 31 30 6 -1.</_>
        <_>
          12 31 10 6 3.</_></rects>
      <tilted>0</tilted></_>
    <_>
      <rects>
        <_>
          3 23 15 1 -1.</_>
        <_>
          8 23 5 1 3.</_></rects>
      <tilted>0</tilted></_>
    <_>
      <rects>
        <_>
          8 22 2 20 -1.</_>
        <_>
          9 22 1 20 2.</_></rects>
      <tilted>0</tilted></_>
    <_>
      <rects>
        <_>
          9 22 21 10 -1.</_>
        <_>
          9 27 21 5 2.</_></rects>
      <tilted>0</tilted></_>
    <_>
      <rects>
        <_>
          9 25 15 22 -1.</_>
        <_>
          14 25 5 22 3.</_></rects>
      <tilted>0</tilted></_>
    <_>
      <rects>
        <_>
          10 16 30 1 -1.</_>
        <_>
          20 16 10 1 3.</_></rects>
      <tilted>0</tilted></_>
    <_>
      <rects>
        <_>
          13 0 37 6 -1.</_>
        <_>
          13 3 37 3 2.</_></rects>
      <tilted>0</tilted></_>
    <_>
      <rects>
        <_>
          15 4 33 42 -1.</_>
        <_>
          15 18 33 14 3.</_></rects>
      <tilted>0</tilted></_>
    <_>
      <rects>
        <_>
          18 37 14 12 -1.</_>
        <_>
          18 41 14 4 3.</_></rects>
      <tilted>0</tilted></_>
    <_>
      <rects>
        <_>
          19 35 10 6 -1.</_>
        <_>
          19 37 10 2 3.</_></rects>
      <tilted>0</tilted></_>
    <_>
      <rects>
        <_>
          21 13 24 8 -1.</_>
        <_>
          33 13 12 8 2.</_></rects>
      <tilted>0</tilted></_>
    <_>
      <rects>
        <_>
          28 6 6 14 -1.</_>
        <_>
          31 6 3 14 2.</_></rects>
      <tilted>0</tilted></_>
    <_>
      <rects>
        <_>
          32 13 6 12 -1.</_>
        <_>
          34 13 2 12 3.</_></rects>
      <tilted>0</tilted></_>
    <_>
      <rects>
        <_>
          33 36 3 14 -1.</_>
        <_>
          33 43 3 7 2.</_></rects>
      <tilted>0</tilted></_>
    <_>
      <rects>
        <_>
          35 16 12 18 -1.</_>
        <_>
          39 16 4 18 3.</_></rects>
      <tilted>0</tilted></_>
    <_>
      <rects>
        <_>
          42 9 4 16 -1.</_>
        <_>
          42 9 2 8 2.</_>
        <_>
          44 17 2 8 2.</_></rects>
      <tilted>0</tilted></_></features></cascade>
</opencv_storage>
